<unk>	0
<s>	0
</s>	0
<pad>	0
in	-0
re	-1
▁a	-2
er	-3
or	-4
ti	-5
on	-6
es	-7
▁p	-8
▁s	-9
tion	-10
ns	-11
▁f	-12
▁c	-13
▁A	-14
ues	-15
at	-16
ing	-17
▁Q	-18
nsw	-19
nswer	-20
▁Ques	-21
▁Answer	-22
▁Question	-23
ed	-24
▁t	-25
Wh	-26
en	-27
▁Wh	-28
▁d	-29
▁m	-30
he	-31
nd	-32
al	-33
im	-34
ve	-35
int	-36
▁pt	-37
▁and	-38
▁are	-39
▁for	-40
is	-41
ts	-42
ra	-43
▁pr	-44
▁re	-45
▁b	-46
ol	-47
us	-48
il	-49
os	-50
▁P	-51
▁Why	-52
▁the	-53
▁print	-54
an	-55
em	-56
id	-57
ro	-58
tw	-59
▁T	-60
▁be	-61
▁in	-62
▁sp	-63
tive	-64
▁What	-65
ad	-66
ic	-67
if	-68
▁l	-69
▁printing	-70
ec	-71
ork	-72
▁is	-73
olor	-74
it	-75
ou	-76
▁w	-77
imu	-78
rtw	-79
▁spec	-80
rtwork	-81
▁color	-82
ex	-83
ga	-84
ta	-85
ur	-86
▁1	-87
emb	-88
imp	-89
▁de	-90
▁or	-91
imum	-92
▁emb	-93
▁fon	-94
▁min	-95
▁artwork	-96
▁minimum	-97
.5	-98
ig	-99
pp	-100
▁N	-101
men	-102
▁specs	-103
le	-104
ly	-105
of	-106
ega	-107
ext	-108
ity	-109
osi	-110
ust	-111
▁do	-112
▁wh	-113
ider	-114
▁can	-115
▁tra	-116
▁Nega	-117
▁Posi	-118
▁fonts	-119
▁Negative	-120
▁Positive	-121
la	-122
ll	-123
om	-124
ot	-125
▁C	-126
all	-127
cre	-128
fer	-129
oss	-130
res	-131
▁sh	-132
▁pad	-133
creen	-134
idery	-135
▁Text	-136
ossing	-137
▁embro	-138
▁trans	-139
▁embroidery	-140
MY	-141
ay	-142
cc	-143
ct	-144
di	-145
du	-146
ld	-147
qu	-148
st	-149
tl	-150
▁0	-151
▁2	-152
▁L	-153
▁S	-154
▁h	-155
▁n	-156
MYK	-157
ate	-158
aus	-159
bil	-160
ded	-161
duc	-162
igh	-163
ine	-164
ire	-165
lif	-166
ser	-167
ved	-168
▁he	-169
▁sa	-170
▁sm	-171
▁us	-172
ents	-173
ines	-174
ould	-175
tail	-176
▁acc	-177
▁con	-178
▁fil	-179
▁imp	-180
▁int	-181
▁why	-182
ation	-183
quire	-184
▁caus	-185
▁must	-186
▁simp	-187
bility	-188
▁small	-189
▁detail	-190
▁screen	-191
▁should	-192
▁require	-193
▁simplif	-194
▁transfer	-195
GB	-196
ep	-197
ps	-198
▁H	-199
▁I	-200
▁R	-201
▁g	-202
are	-203
ats	-204
ble	-205
ces	-206
com	-207
ent	-208
ial	-209
ist	-210
ter	-211
tit	-212
ton	-213
ver	-214
▁Th	-215
▁ha	-216
▁id	-217
▁of	-218
▁ou	-219
▁sy	-220
▁th	-221
▁to	-222
▁ve	-223
ctor	-224
mats	-225
ment	-226
oduc	-227
read	-228
▁0.5	-229
▁1.5	-230
▁RGB	-231
▁The	-232
▁app	-233
▁deb	-234
▁dur	-235
▁may	-236
▁not	-237
▁pre	-238
serif	-239
▁CMYK	-240
▁does	-241
▁heat	-242
▁outl	-243
▁sans	-244
▁used	-245
commen	-246
▁cause	-247
ication	-248
▁colors	-249
▁during	-250
▁produc	-251
▁vector	-252
▁details	-253
▁formats	-254
commended	-255
▁debossing	-256
▁production	-257
▁recommended	-258
▁simplification	-259
35	-260
45	-261
DF	-262
PI	-263
am	-264
ch	-265
ea	-266
el	-267
et	-268
fo	-269
hs	-270
lo	-271
me	-272
ow	-273
ub	-274
vo	-275
yn	-276
–1	-277
–2	-278
▁(	-279
▁E	-280
▁O	-281
35–	-282
alf	-283
dia	-284
end	-285
ern	-286
ick	-287
ics	-288
ign	-289
imi	-290
kes	-291
lar	-292
led	-293
omp	-294
ort	-295
ted	-296
tro	-297
ull	-298
ura	-299
▁li	-300
▁we	-301
aces	-302
aths	-303
epta	-304
fore	-305
gist	-306
ical	-307
ided	-308
ight	-309
laps	-310
late	-311
lean	-312
oftw	-313
radi	-314
ress	-315
rint	-316
stem	-317
sues	-318
ures	-319
ving	-320
ynam	-321
▁35–	-322
▁How	-323
▁LPI	-324
▁PDF	-325
▁Pad	-326
▁avo	-327
▁ink	-328
▁mis	-329
▁rep	-330
▁sub	-331
ernal	-332
icker	-333
ights	-334
imits	-335
ining	-336
ndled	-337
pping	-338
roved	-339
titch	-340
tones	-341
urate	-342
▁They	-343
▁clar	-344
▁comp	-345
▁dura	-346
▁file	-347
▁fill	-348
▁fine	-349
▁font	-350
▁full	-351
▁into	-352
▁line	-353
▁stro	-354
gistra	-355
verted	-356
▁35–45	-357
▁clean	-358
▁gradi	-359
▁india	-360
▁lines	-361
▁paths	-362
▁softw	-363
eptable	-364
ynamics	-365
▁before	-366
▁issues	-367
▁limits	-368
▁spread	-369
▁stitch	-370
▁system	-371
alftones	-372
▁avoided	-373
▁clarity	-374
▁handled	-375
▁imprint	-376
▁special	-377
▁strokes	-378
▁weights	-379
▁accurate	-380
▁approved	-381
▁internal	-382
▁outlines	-383
▁software	-384
gistration	-385
▁converted	-386
▁embossing	-387
▁gradients	-388
▁idynamics	-389
▁acceptable	-390
▁durability	-391
),	-392
.7	-393
Ad	-394
Ga	-395
PS	-396
Ra	-397
Un	-398
ag	-399
as	-400
be	-401
bo	-402
ck	-403
dj	-404
ds	-405
eo	-406
gh	-407
gn	-408
ho	-409
hy	-410
ir	-411
ix	-412
ke	-413
mb	-414
mo	-415
nk	-416
nt	-417
ok	-418
ri	-419
si	-420
sp	-421
ua	-422
ws	-423
yp	-424
~9	-425
–3	-426
▁6	-427
▁8	-428
▁V	-429
▁o	-430
▁®	-431
.75	-432
Ado	-433
Gap	-434
Raj	-435
act	-436
▁	-437
e	-438
t	-439
i	-440
s	-441
n	-442
r	-443
a	-444
o	-445
d	-446
l	-447
p	-448
u	-449
c	-450
m	-451
h	-452
:	-453
f	-454
g	-455
w	-456
y	-457
.	-458
b	-459
v	-460
A	-461
Q	-462
?	-463
W	-464
,	-465
k	-466
P	-467
5	-468
T	-469
1	-470
x	-471
2	-472
C	-473
N	-474
–	-475
-	-476
I	-477
0	-478
S	-479
4	-480
G	-481
K	-482
L	-483
M	-484
R	-485
Y	-486
q	-487
3	-488
B	-489
E	-490
H	-491
O	-492
(	-493
)	-494
;	-495
D	-496
F	-497
j	-498
/	-499
6	-500
7	-501
8	-502
9	-503
U	-504
V	-505
~	-506
®	-507
